#ifndef MODEL_DATA_H
#define MODEL_DATA_H
#include <stdlign.h>

const unsigned char g_model[] __attribute__((aligned(16))) = {
0x1c, 0x00, 0x00, 0x00, 0x54, 0x46, 0x4c, 0x33, 0x14, 0x00, 0x20, 0x00, 
0x1c, 0x00, 0x18, 0x00, 0x14, 0x00, 0x10, 0x00, 0x0c, 0x00, 0x00, 0x00, 
0x08, 0x00, 0x04, 0x00, 0x14, 0x00, 0x00, 0x00, 0x1c, 0x00, 0x00, 0x00, 
0x8c, 0x00, 0x00, 0x00, 0xe4, 0x00, 0x00, 0x00, 0x14, 0x03, 0x00, 0x00, 
0x24, 0x03, 0x00, 0x00, 0x74, 0x07, 0x00, 0x00, 0x03, 0x00, 0x00, 0x00, 
0x01, 0x00, 0x00, 0x00, 0x04, 0x00, 0x00, 0x00, 0xa2, 0xfc, 0xff, 0xff, 
0x0c, 0x00, 0x00, 0x00, 0x1c, 0x00, 0x00, 0x00, 0x3c, 0x00, 0x00, 0x00, 
0x0f, 0x00, 0x00, 0x00, 0x73, 0x65, 0x72, 0x76, 0x69, 0x6e, 0x67, 0x5f, 
0x64, 0x65, 0x66, 0x61, 0x75, 0x6c, 0x74, 0x00, 0x01, 0x00, 0x00, 0x00, 
0x04, 0x00, 0x00, 0x00, 0x90, 0xff, 0xff, 0xff, 0x07, 0x00, 0x00, 0x00, 
0x04, 0x00, 0x00, 0x00, 0x08, 0x00, 0x00, 0x00, 0x6f, 0x75, 0x74, 0x70, 
0x75, 0x74, 0x5f, 0x30, 0x00, 0x00, 0x00, 0x00, 0x01, 0x00, 0x00, 0x00, 
0x04, 0x00, 0x00, 0x00, 0xee, 0xfd, 0xff, 0xff, 0x04, 0x00, 0x00, 0x00, 
0x0f, 0x00, 0x00, 0x00, 0x6b, 0x65, 0x72, 0x61, 0x73, 0x5f, 0x74, 0x65, 
0x6e, 0x73, 0x6f, 0x72, 0x5f, 0x32, 0x34, 0x00, 0x02, 0x00, 0x00, 0x00, 
0x34, 0x00, 0x00, 0x00, 0x04, 0x00, 0x00, 0x00, 0xdc, 0xff, 0xff, 0xff, 
0x0a, 0x00, 0x00, 0x00, 0x04, 0x00, 0x00, 0x00, 0x13, 0x00, 0x00, 0x00, 
0x43, 0x4f, 0x4e, 0x56, 0x45, 0x52, 0x53, 0x49, 0x4f, 0x4e, 0x5f, 0x4d, 
0x45, 0x54, 0x41, 0x44, 0x41, 0x54, 0x41, 0x00, 0x08, 0x00, 0x0c, 0x00, 
0x08, 0x00, 0x04, 0x00, 0x08, 0x00, 0x00, 0x00, 0x09, 0x00, 0x00, 0x00, 
0x04, 0x00, 0x00, 0x00, 0x13, 0x00, 0x00, 0x00, 0x6d, 0x69, 0x6e, 0x5f, 
0x72, 0x75, 0x6e, 0x74, 0x69, 0x6d, 0x65, 0x5f, 0x76, 0x65, 0x72, 0x73, 
0x69, 0x6f, 0x6e, 0x00, 0x0b, 0x00, 0x00, 0x00, 0x2c, 0x02, 0x00, 0x00, 
0x24, 0x02, 0x00, 0x00, 0x94, 0x01, 0x00, 0x00, 0x5c, 0x01, 0x00, 0x00, 
0x3c, 0x01, 0x00, 0x00, 0xac, 0x00, 0x00, 0x00, 0xa4, 0x00, 0x00, 0x00, 
0x9c, 0x00, 0x00, 0x00, 0x94, 0x00, 0x00, 0x00, 0x74, 0x00, 0x00, 0x00, 
0x04, 0x00, 0x00, 0x00, 0x96, 0xfe, 0xff, 0xff, 0x04, 0x00, 0x00, 0x00, 
0x60, 0x00, 0x00, 0x00, 0x10, 0x00, 0x00, 0x00, 0x00, 0x00, 0x00, 0x00, 
0x08, 0x00, 0x0e, 0x00, 0x08, 0x00, 0x04, 0x00, 0x08, 0x00, 0x00, 0x00, 
0x10, 0x00, 0x00, 0x00, 0x24, 0x00, 0x00, 0x00, 0x00, 0x00, 0x06, 0x00, 
0x08, 0x00, 0x04, 0x00, 0x06, 0x00, 0x00, 0x00, 0x04, 0x00, 0x00, 0x00, 
0x00, 0x00, 0x00, 0x00, 0x0c, 0x00, 0x18, 0x00, 0x14, 0x00, 0x10, 0x00, 
0x0c, 0x00, 0x04, 0x00, 0x0c, 0x00, 0x00, 0x00, 0xb8, 0x0e, 0xd7, 0x3f, 
0x0a, 0xc8, 0x8c, 0x4d, 0x02, 0x00, 0x00, 0x00, 0x02, 0x00, 0x00, 0x00, 
0x04, 0x00, 0x00, 0x00, 0x06, 0x00, 0x00, 0x00, 0x32, 0x2e, 0x31, 0x39, 
0x2e, 0x30, 0x00, 0x00, 0x02, 0xff, 0xff, 0xff, 0x04, 0x00, 0x00, 0x00, 
0x10, 0x00, 0x00, 0x00, 0x31, 0x2e, 0x31, 0x34, 0x2e, 0x30, 0x00, 0x00, 
0x00, 0x00, 0x00, 0x00, 0x00, 0x00, 0x00, 0x00, 0x58, 0xfa, 0xff, 0xff, 
0x5c, 0xfa, 0xff, 0xff, 0x60, 0xfa, 0xff, 0xff, 0x2a, 0xff, 0xff, 0xff, 
0x04, 0x00, 0x00, 0x00, 0x80, 0x00, 0x00, 0x00, 0x75, 0xc8, 0x9f, 0xbd, 
0xe1, 0x56, 0xc0, 0x3e, 0xb1, 0x1b, 0xab, 0x3d, 0xc0, 0x44, 0xcd, 0xbe, 
0x17, 0x10, 0x50, 0x3c, 0xc4, 0xb1, 0x31, 0x3e, 0x90, 0x91, 0x0b, 0xbf, 
0xa1, 0x95, 0x2d, 0xbf, 0x53, 0xf8, 0x0c, 0xc0, 0x4c, 0xdd, 0x9d, 0xbf, 
0x11, 0x8f, 0xda, 0xbf, 0x94, 0x26, 0x25, 0x40, 0x5d, 0x81, 0x4a, 0x40, 
0xb7, 0x34, 0x04, 0xbf, 0xf7, 0xd9, 0x09, 0xbf, 0x80, 0xd8, 0x65, 0x3d, 
0x40, 0x3a, 0xe7, 0xbc, 0xa1, 0xef, 0x5c, 0x3e, 0x8f, 0xf9, 0xaf, 0xbe, 
0x90, 0xd6, 0x1c, 0xbf, 0xd0, 0xf3, 0x2d, 0xbe, 0x6d, 0x2c, 0xd9, 0xbe, 
0x38, 0x63, 0x15, 0xbf, 0xd9, 0x3e, 0x1b, 0xbf, 0x77, 0x70, 0x39, 0x3f, 
0x84, 0x94, 0x89, 0x3f, 0x77, 0x4c, 0x16, 0x3f, 0x46, 0xb0, 0x1a, 0x40, 
0x12, 0x2c, 0x44, 0xbf, 0x63, 0x4b, 0x0d, 0x3f, 0xf3, 0xe5, 0x0d, 0x3f, 
0x76, 0x8b, 0xd4, 0x3e, 0xb6, 0xff, 0xff, 0xff, 0x04, 0x00, 0x00, 0x00, 
0x10, 0x00, 0x00, 0x00, 0x60, 0x2f, 0xf1, 0xbd, 0x61, 0xcd, 0x3b, 0x3f, 
0xba, 0x9a, 0x97, 0xbd, 0xd7, 0x95, 0x9a, 0x3f, 0xd2, 0xff, 0xff, 0xff, 
0x04, 0x00, 0x00, 0x00, 0x20, 0x00, 0x00, 0x00, 0x9d, 0xe1, 0x3f, 0xbf, 
0x8f, 0xf6, 0x46, 0xbf, 0x5d, 0xec, 0x5f, 0xbf, 0x91, 0x33, 0x4d, 0xc0, 
0x46, 0x95, 0xd5, 0xbf, 0xcd, 0xe6, 0x5b, 0xbf, 0x90, 0x0f, 0x76, 0xbf, 
0x7c, 0x05, 0x83, 0xbf, 0x00, 0x00, 0x06, 0x00, 0x08, 0x00, 0x04, 0x00, 
0x06, 0x00, 0x00, 0x00, 0x04, 0x00, 0x00, 0x00, 0x80, 0x00, 0x00, 0x00, 
0xa9, 0x93, 0x80, 0xbe, 0x67, 0x78, 0xfc, 0xbf, 0x17, 0xec, 0x5b, 0x3d, 
0xf8, 0xf6, 0xf0, 0xbf, 0x5b, 0xbc, 0xbe, 0x3e, 0xf7, 0xd9, 0x0f, 0xc0, 
0x6b, 0x9a, 0xc4, 0xbd, 0xcd, 0xf8, 0xa1, 0xbf, 0x2c, 0x8b, 0x74, 0x3e, 
0x66, 0x3d, 0xff, 0xbf, 0x03, 0x37, 0x0f, 0x3f, 0xd5, 0x61, 0xca, 0xbf, 
0x15, 0x75, 0xb2, 0x3e, 0xfa, 0x0f, 0xba, 0x3e, 0x05, 0xaf, 0xcd, 0x3e, 
0x7f, 0x01, 0x7e, 0x3f, 0xb3, 0xa7, 0xef, 0xbe, 0x06, 0x2c, 0xa0, 0x3f, 
0xf5, 0xc6, 0x26, 0x3f, 0xf9, 0x25, 0xae, 0xbf, 0x5c, 0x59, 0xe2, 0xbe, 
0x22, 0x4f, 0xb8, 0xbf, 0xa3, 0xfb, 0xa7, 0x3e, 0x16, 0xd1, 0x0e, 0xc0, 
0xe6, 0x22, 0x60, 0x3e, 0x5c, 0x70, 0xe7, 0xbf, 0x58, 0xae, 0x10, 0x3e, 
0x5c, 0x45, 0xca, 0xbf, 0x9c, 0xf9, 0xf6, 0x3e, 0x91, 0x33, 0xe1, 0xbf, 
0xa6, 0x35, 0xf9, 0xbe, 0xa1, 0xce, 0xbf, 0xbf, 0xcc, 0xfb, 0xff, 0xff, 
0xd0, 0xfb, 0xff, 0xff, 0x0f, 0x00, 0x00, 0x00, 0x4d, 0x4c, 0x49, 0x52, 
0x20, 0x43, 0x6f, 0x6e, 0x76, 0x65, 0x72, 0x74, 0x65, 0x64, 0x2e, 0x00, 
0x01, 0x00, 0x00, 0x00, 0x14, 0x00, 0x00, 0x00, 0x00, 0x00, 0x0e, 0x00, 
0x18, 0x00, 0x14, 0x00, 0x10, 0x00, 0x0c, 0x00, 0x08, 0x00, 0x04, 0x00, 
0x0e, 0x00, 0x00, 0x00, 0x14, 0x00, 0x00, 0x00, 0x1c, 0x00, 0x00, 0x00, 
0xd0, 0x00, 0x00, 0x00, 0xd4, 0x00, 0x00, 0x00, 0xd8, 0x00, 0x00, 0x00, 
0x04, 0x00, 0x00, 0x00, 0x6d, 0x61, 0x69, 0x6e, 0x00, 0x00, 0x00, 0x00, 
0x03, 0x00, 0x00, 0x00, 0x78, 0x00, 0x00, 0x00, 0x34, 0x00, 0x00, 0x00, 
0x10, 0x00, 0x00, 0x00, 0x00, 0x00, 0x0a, 0x00, 0x10, 0x00, 0x0c, 0x00, 
0x08, 0x00, 0x04, 0x00, 0x0a, 0x00, 0x00, 0x00, 0x0c, 0x00, 0x00, 0x00, 
0x10, 0x00, 0x00, 0x00, 0x01, 0x00, 0x00, 0x00, 0x01, 0x00, 0x00, 0x00, 
0x07, 0x00, 0x00, 0x00, 0x01, 0x00, 0x00, 0x00, 0x06, 0x00, 0x00, 0x00, 
0xce, 0xff, 0xff, 0xff, 0x10, 0x00, 0x00, 0x00, 0x00, 0x00, 0x00, 0x08, 
0x0c, 0x00, 0x00, 0x00, 0x10, 0x00, 0x00, 0x00, 0x74, 0xfc, 0xff, 0xff, 
0x01, 0x00, 0x00, 0x00, 0x06, 0x00, 0x00, 0x00, 0x03, 0x00, 0x00, 0x00, 
0x05, 0x00, 0x00, 0x00, 0x01, 0x00, 0x00, 0x00, 0x02, 0x00, 0x00, 0x00, 
0x00, 0x00, 0x0e, 0x00, 0x16, 0x00, 0x00, 0x00, 0x10, 0x00, 0x0c, 0x00, 
0x0b, 0x00, 0x04, 0x00, 0x0e, 0x00, 0x00, 0x00, 0x18, 0x00, 0x00, 0x00, 
0x00, 0x00, 0x00, 0x08, 0x18, 0x00, 0x00, 0x00, 0x1c, 0x00, 0x00, 0x00, 
0x00, 0x00, 0x06, 0x00, 0x08, 0x00, 0x07, 0x00, 0x06, 0x00, 0x00, 0x00, 
0x00, 0x00, 0x00, 0x01, 0x01, 0x00, 0x00, 0x00, 0x05, 0x00, 0x00, 0x00, 
0x03, 0x00, 0x00, 0x00, 0x00, 0x00, 0x00, 0x00, 0x04, 0x00, 0x00, 0x00, 
0x03, 0x00, 0x00, 0x00, 0x01, 0x00, 0x00, 0x00, 0x07, 0x00, 0x00, 0x00, 
0x01, 0x00, 0x00, 0x00, 0x00, 0x00, 0x00, 0x00, 0x08, 0x00, 0x00, 0x00, 
0xe8, 0x02, 0x00, 0x00, 0x90, 0x02, 0x00, 0x00, 0x3c, 0x02, 0x00, 0x00, 
0xdc, 0x01, 0x00, 0x00, 0x88, 0x01, 0x00, 0x00, 0xe4, 0x00, 0x00, 0x00, 
0x60, 0x00, 0x00, 0x00, 0x04, 0x00, 0x00, 0x00, 0x4e, 0xfd, 0xff, 0xff, 
0x00, 0x00, 0x00, 0x01, 0x14, 0x00, 0x00, 0x00, 0x1c, 0x00, 0x00, 0x00, 
0x1c, 0x00, 0x00, 0x00, 0x08, 0x00, 0x00, 0x00, 0x34, 0x00, 0x00, 0x00, 
0x02, 0x00, 0x00, 0x00, 0xff, 0xff, 0xff, 0xff, 0x08, 0x00, 0x00, 0x00, 
0x38, 0xfd, 0xff, 0xff, 0x1b, 0x00, 0x00, 0x00, 0x53, 0x74, 0x61, 0x74, 
0x65, 0x66, 0x75, 0x6c, 0x50, 0x61, 0x72, 0x74, 0x69, 0x74, 0x69, 0x6f, 
0x6e, 0x65, 0x64, 0x43, 0x61, 0x6c, 0x6c, 0x5f, 0x31, 0x3a, 0x30, 0x00, 
0x02, 0x00, 0x00, 0x00, 0x01, 0x00, 0x00, 0x00, 0x08, 0x00, 0x00, 0x00, 
0xa6, 0xfd, 0xff, 0xff, 0x00, 0x00, 0x00, 0x01, 0x14, 0x00, 0x00, 0x00, 
0x1c, 0x00, 0x00, 0x00, 0x1c, 0x00, 0x00, 0x00, 0x07, 0x00, 0x00, 0x00, 
0x5c, 0x00, 0x00, 0x00, 0x02, 0x00, 0x00, 0x00, 0xff, 0xff, 0xff, 0xff, 
0x08, 0x00, 0x00, 0x00, 0x90, 0xfd, 0xff, 0xff, 0x42, 0x00, 0x00, 0x00, 
0x73, 0x65, 0x71, 0x75, 0x65, 0x6e, 0x74, 0x69, 0x61, 0x6c, 0x5f, 0x36, 
0x5f, 0x31, 0x2f, 0x64, 0x65, 0x6e, 0x73, 0x65, 0x5f, 0x31, 0x33, 0x5f, 
0x31, 0x2f, 0x4d, 0x61, 0x74, 0x4d, 0x75, 0x6c, 0x3b, 0x73, 0x65, 0x71, 
0x75, 0x65, 0x6e, 0x74, 0x69, 0x61, 0x6c, 0x5f, 0x36, 0x5f, 0x31, 0x2f, 
0x64, 0x65, 0x6e, 0x73, 0x65, 0x5f, 0x31, 0x33, 0x5f, 0x31, 0x2f, 0x42, 
0x69, 0x61, 0x73, 0x41, 0x64, 0x64, 0x00, 0x00, 0x02, 0x00, 0x00, 0x00, 
0x01, 0x00, 0x00, 0x00, 0x08, 0x00, 0x00, 0x00, 0x26, 0xfe, 0xff, 0xff, 
0x00, 0x00, 0x00, 0x01, 0x14, 0x00, 0x00, 0x00, 0x1c, 0x00, 0x00, 0x00, 
0x1c, 0x00, 0x00, 0x00, 0x06, 0x00, 0x00, 0x00, 0x7c, 0x00, 0x00, 0x00, 
0x02, 0x00, 0x00, 0x00, 0xff, 0xff, 0xff, 0xff, 0x04, 0x00, 0x00, 0x00, 
0x10, 0xfe, 0xff, 0xff, 0x61, 0x00, 0x00, 0x00, 0x73, 0x65, 0x71, 0x75, 
0x65, 0x6e, 0x74, 0x69, 0x61, 0x6c, 0x5f, 0x36, 0x5f, 0x31, 0x2f, 0x64, 
0x65, 0x6e, 0x73, 0x65, 0x5f, 0x31, 0x32, 0x5f, 0x31, 0x2f, 0x4d, 0x61, 
0x74, 0x4d, 0x75, 0x6c, 0x3b, 0x73, 0x65, 0x71, 0x75, 0x65, 0x6e, 0x74, 
0x69, 0x61, 0x6c, 0x5f, 0x36, 0x5f, 0x31, 0x2f, 0x64, 0x65, 0x6e, 0x73, 
0x65, 0x5f, 0x31, 0x32, 0x5f, 0x31, 0x2f, 0x52, 0x65, 0x6c, 0x75, 0x3b, 
0x73, 0x65, 0x71, 0x75, 0x65, 0x6e, 0x74, 0x69, 0x61, 0x6c, 0x5f, 0x36, 
0x5f, 0x31, 0x2f, 0x64, 0x65, 0x6e, 0x73, 0x65, 0x5f, 0x31, 0x32, 0x5f, 
0x31, 0x2f, 0x42, 0x69, 0x61, 0x73, 0x41, 0x64, 0x64, 0x00, 0x00, 0x00, 
0x02, 0x00, 0x00, 0x00, 0x01, 0x00, 0x00, 0x00, 0x04, 0x00, 0x00, 0x00, 
0x1a, 0xff, 0xff, 0xff, 0x00, 0x00, 0x00, 0x01, 0x10, 0x00, 0x00, 0x00, 
0x10, 0x00, 0x00, 0x00, 0x05, 0x00, 0x00, 0x00, 0x30, 0x00, 0x00, 0x00, 
0xa0, 0xfe, 0xff, 0xff, 0x20, 0x00, 0x00, 0x00, 0x73, 0x65, 0x71, 0x75, 
0x65, 0x6e, 0x74, 0x69, 0x61, 0x6c, 0x5f, 0x36, 0x5f, 0x31, 0x2f, 0x64, 
0x65, 0x6e, 0x73, 0x65, 0x5f, 0x31, 0x32, 0x5f, 0x31, 0x2f, 0x4d, 0x61, 
0x74, 0x4d, 0x75, 0x6c, 0x00, 0x00, 0x00, 0x00, 0x02, 0x00, 0x00, 0x00, 
0x04, 0x00, 0x00, 0x00, 0x08, 0x00, 0x00, 0x00, 0x6a, 0xff, 0xff, 0xff, 
0x00, 0x00, 0x00, 0x01, 0x10, 0x00, 0x00, 0x00, 0x10, 0x00, 0x00, 0x00, 
0x04, 0x00, 0x00, 0x00, 0x40, 0x00, 0x00, 0x00, 0xf0, 0xfe, 0xff, 0xff, 
0x30, 0x00, 0x00, 0x00, 0x73, 0x65, 0x71, 0x75, 0x65, 0x6e, 0x74, 0x69, 
0x61, 0x6c, 0x5f, 0x36, 0x5f, 0x31, 0x2f, 0x64, 0x65, 0x6e, 0x73, 0x65, 
0x5f, 0x31, 0x32, 0x5f, 0x31, 0x2f, 0x42, 0x69, 0x61, 0x73, 0x41, 0x64, 
0x64, 0x2f, 0x52, 0x65, 0x61, 0x64, 0x56, 0x61, 0x72, 0x69, 0x61, 0x62, 
0x6c, 0x65, 0x4f, 0x70, 0x00, 0x00, 0x00, 0x00, 0x01, 0x00, 0x00, 0x00, 
0x04, 0x00, 0x00, 0x00, 0xc6, 0xff, 0xff, 0xff, 0x00, 0x00, 0x00, 0x01, 
0x10, 0x00, 0x00, 0x00, 0x10, 0x00, 0x00, 0x00, 0x03, 0x00, 0x00, 0x00, 
0x1c, 0x00, 0x00, 0x00, 0x4c, 0xff, 0xff, 0xff, 0x0f, 0x00, 0x00, 0x00, 
0x61, 0x72, 0x69, 0x74, 0x68, 0x2e, 0x63, 0x6f, 0x6e, 0x73, 0x74, 0x61, 
0x6e, 0x74, 0x31, 0x00, 0x01, 0x00, 0x00, 0x00, 0x08, 0x00, 0x00, 0x00, 
0x00, 0x00, 0x16, 0x00, 0x18, 0x00, 0x14, 0x00, 0x00, 0x00, 0x10, 0x00, 
0x0c, 0x00, 0x08, 0x00, 0x00, 0x00, 0x00, 0x00, 0x00, 0x00, 0x07, 0x00, 
0x16, 0x00, 0x00, 0x00, 0x00, 0x00, 0x00, 0x01, 0x10, 0x00, 0x00, 0x00, 
0x10, 0x00, 0x00, 0x00, 0x02, 0x00, 0x00, 0x00, 0x1c, 0x00, 0x00, 0x00, 
0x9c, 0xff, 0xff, 0xff, 0x0e, 0x00, 0x00, 0x00, 0x61, 0x72, 0x69, 0x74, 
0x68, 0x2e, 0x63, 0x6f, 0x6e, 0x73, 0x74, 0x61, 0x6e, 0x74, 0x00, 0x00, 
0x02, 0x00, 0x00, 0x00, 0x08, 0x00, 0x00, 0x00, 0x04, 0x00, 0x00, 0x00, 
0x00, 0x00, 0x16, 0x00, 0x1c, 0x00, 0x18, 0x00, 0x00, 0x00, 0x14, 0x00, 
0x10, 0x00, 0x0c, 0x00, 0x00, 0x00, 0x00, 0x00, 0x08, 0x00, 0x07, 0x00, 
0x16, 0x00, 0x00, 0x00, 0x00, 0x00, 0x00, 0x01, 0x14, 0x00, 0x00, 0x00, 
0x20, 0x00, 0x00, 0x00, 0x20, 0x00, 0x00, 0x00, 0x01, 0x00, 0x00, 0x00, 
0x40, 0x00, 0x00, 0x00, 0x02, 0x00, 0x00, 0x00, 0xff, 0xff, 0xff, 0xff, 
0x08, 0x00, 0x00, 0x00, 0x04, 0x00, 0x04, 0x00, 0x04, 0x00, 0x00, 0x00, 
0x21, 0x00, 0x00, 0x00, 0x73, 0x65, 0x72, 0x76, 0x69, 0x6e, 0x67, 0x5f, 
0x64, 0x65, 0x66, 0x61, 0x75, 0x6c, 0x74, 0x5f, 0x6b, 0x65, 0x72, 0x61, 
0x73, 0x5f, 0x74, 0x65, 0x6e, 0x73, 0x6f, 0x72, 0x5f, 0x32, 0x34, 0x3a, 
0x30, 0x00, 0x00, 0x00, 0x02, 0x00, 0x00, 0x00, 0x01, 0x00, 0x00, 0x00, 
0x08, 0x00, 0x00, 0x00, 0x02, 0x00, 0x00, 0x00, 0x20, 0x00, 0x00, 0x00, 
0x04, 0x00, 0x00, 0x00, 0xf4, 0xff, 0xff, 0xff, 0x0e, 0x00, 0x00, 0x00, 
0x00, 0x00, 0x00, 0x0e, 0x0c, 0x00, 0x0c, 0x00, 0x0b, 0x00, 0x00, 0x00, 
0x00, 0x00, 0x04, 0x00, 0x0c, 0x00, 0x00, 0x00, 0x09, 0x00, 0x00, 0x00, 
0x00, 0x00, 0x00, 0x09, 
};

const int g_model_len = 2008;
#endif
